<pad>	0
<unk>	0
<s>	0
</s>	0
.	-3.53922
▁là	-3.56721
,	-3.63625
▁cái	-3.96985
▁thì	-4.05824
▁các	-4.27872
▁và	-4.36794
▁có	-4.46785
▁cũng	-4.48434
▁để	-4.56874
▁của	-4.61695
▁cho	-4.67202
▁được	-4.81531
▁mà	-4.92219
▁tôi	-4.97588
▁một	-5.01446
▁trong	-5.03512
▁những	-5.07134
▁với	-5.09049
▁như	-5.10856
▁công	-5.12906
▁không	-5.16888
▁người	-5.17593
▁nó	-5.17657
▁dân	-5.17759
▁mình	-5.18092
▁rất	-5.20453
▁chúng	-5.25802
▁đã	-5.27522
▁hai	-5.27854
▁về	-5.30362
▁này	-5.30607
▁	-5.32403
▁đó	-5.37243
▁làm	-5.39374
▁em	-5.4712
▁hiện	-5.47789
▁năm	-5.50471
▁đến	-5.52309
▁con	-5.52696
▁học	-5.56484
▁động	-5.62521
▁rồi	-5.63755
▁ở	-5.65055
▁sẽ	-5.66691
▁nhà	-5.69548
▁thực	-5.73441
▁đi	-5.76002
ng	-5.7623
▁từ	-5.76571
▁trường	-5.77795
▁gia	-5.78842
▁xã	-5.79136
i	-5.79189
▁phải	-5.79825
▁ra	-5.80353
▁trên	-5.80402
▁nhân	-5.80713
▁việc	-5.81495
▁nhiều	-5.81683
▁địa	-5.87615
▁khi	-5.90143
▁hội	-5.91131
▁thể	-5.91984
▁ta	-5.92043
▁thời	-5.95215
▁đồng	-5.97004
▁triển	-5.98061
▁phát	-5.99333
▁thành	-6.00387
▁tác	-6.01227
▁hơn	-6.01262
▁t	-6.02589
▁hợp	-6.03703
▁đầu	-6.04024
▁sản	-6.06377
▁cơ	-6.06768
▁đây	-6.06778
▁lại	-6.07141
▁bộ	-6.08767
▁quan	-6.0973
▁ba	-6.10796
▁bảo	-6.10814
▁đối	-6.11152
▁chính	-6.12836
▁thông	-6.16546
▁vào	-6.16579
▁qua	-6.16861
▁nay	-6.17251
▁sinh	-6.17295
▁số	-6.17391
▁bà	-6.18123
▁trình	-6.18292
▁chỉ	-6.20046
ặc	-6.2035
▁trăm	-6.20676
▁ban	-6.21669
▁cao	-6.22276
▁nước	-6.22601
▁phương	-6.22601
▁tổ	-6.23047
▁thấy	-6.23123
▁mới	-6.24564
▁tỉnh	-6.24661
▁định	-6.24707
▁giờ	-6.24756
n	-6.248
▁đ	-6.25156
▁tập	-6.25387
▁viên	-6.25486
▁hàng	-6.26015
▁theo	-6.26959
▁vụ	-6.27407
▁tiếp	-6.28056
▁an	-6.31378
▁sự	-6.31412
▁nhất	-6.31777
▁ngày	-6.31826
▁còn	-6.34192
▁thứ	-6.35009
▁tâm	-6.35652
▁truyền	-6.35855
▁cả	-6.36279
▁nên	-6.36945
▁tốt	-6.37452
▁chức	-6.37834
▁hình	-6.38209
▁trung	-6.38932
▁nghiệp	-6.40506
▁tại	-6.42456
▁kinh	-6.42511
▁thế	-6.42743
▁đường	-6.4327
▁nói	-6.43282
▁cấp	-6.44025
▁tế	-6.44482
▁đề	-6.45022
▁lượng	-6.45443
▁nhưng	-6.47139
▁phần	-6.47611
▁điều	-6.47671
▁bị	-6.48283
▁tư	-6.48655
▁toàn	-6.48958
▁phòng	-6.49329
▁nông	-6.50326
▁huyện	-6.507
▁tới	-6.51589
ham	-6.51656
▁mươi	-6.51772
▁dụng	-6.52134
▁xây	-6.52348
▁hành	-6.52864
▁gian	-6.53429
▁sở	-6.5363
▁xuất	-6.53954
▁lý	-6.54996
▁tạo	-6.55272
▁dựng	-6.55315
▁sau	-6.55456
▁nữa	-6.56071
▁bàn	-6.56233
▁đình	-6.56447
▁khó	-6.56632
▁tiêu	-6.57449
▁giá	-6.57787
▁mười	-6.5792
▁hộ	-6.58808
▁đạo	-6.59701
▁thu	-6.59723
▁lực	-6.6024
▁trợ	-6.60311
▁đảm	-6.60378
▁giao	-6.6046
▁lên	-6.60733
▁chủ	-6.63399
▁kết	-6.64951
▁đoàn	-6.65557
▁bản	-6.67447
▁vì	-6.68139
▁khai	-6.68238
m	-6.68322
▁hoạt	-6.68588
▁phẩm	-6.68672
▁thường	-6.69796
▁biệt	-6.70558
▁hỗ	-6.7102
▁thị	-6.72063
▁trước	-6.72803
▁tục	-6.73367
▁doanh	-6.76389
▁chí	-6.76573
▁tuyên	-6.77123
▁hóa	-6.78853
▁bệnh	-6.80024
▁điểm	-6.80276
▁khăn	-6.81294
▁nào	-6.81721
▁quả	-6.82506
▁văn	-6.83534
▁hướng	-6.83709
▁tình	-6.83884
▁ủy	-6.83887
▁tra	-6.84653
▁vậy	-6.85204
▁bây	-6.85209
▁khu	-6.85243
▁thức	-6.85624
▁cây	-6.85652
▁chung	-6.85759
▁anh	-6.85872
▁giáo	-6.86004
▁vận	-6.86184
▁hết	-6.86273
▁quy	-6.86535
▁giúp	-6.86812
▁tự	-6.86915
▁luôn	-6.86993
▁cùng	-6.88913
▁quyết	-6.89921
▁đang	-6.90674
▁chất	-6.90674
▁ăn	-6.90761
▁nhiệm	-6.90855
▁năng	-6.91797
▁tháng	-6.91797
▁thôn	-6.92437
▁giải	-6.92586
▁quá	-6.93158
▁nhận	-6.93708
▁bốn	-6.93851
▁pháp	-6.94099
▁sống	-6.94288
▁sử	-6.96867
▁phố	-6.9734
▁mô	-6.98151
▁họ	-6.9818
▁hoàn	-6.98277
▁muốn	-6.98349
▁ngoài	-6.98349
▁m	-6.98412
▁liên	-6.98652
▁hiệu	-6.98754
▁cháy	-6.98855
▁nguồn	-6.9916
▁điện	-6.9916
▁cách	-6.99737
▁đất	-7.00029
▁bên	-7.00073
▁vấn	-7.00287
▁cháu	-7.00494
▁nâ	-7.00494
▁đảng	-7.01331
▁dịch	-7.0195
t	-7.02744
▁vị	-7.02811
▁thống	-7.02898
▁kiện	-7.03427
▁hoạch	-7.03534
▁tích	-7.05361
▁thi	-7.05487
▁tin	-7.05772
▁độ	-7.06011
▁dự	-7.06135
▁biết	-7.0645
▁chi	-7.07219
▁kiểm	-7.07552
▁chị	-7.07609
▁nuôi	-7.08107
▁thêm	-7.08554
▁ý	-7.08785
▁trồng	-7.08894
▁chuyển	-7.09115
▁bạn	-7.09228
▁lợi	-7.09906
▁cầu	-7.10137
▁tất	-7.10203
▁khách	-7.10613
▁gì	-7.10625
▁đơn	-7.10703
a	-7.10984
▁đổi	-7.11896
▁chưa	-7.11969
▁sách	-7.12201
▁chương	-7.12785
▁tăng	-7.129
▁án	-7.13185
▁cố	-7.13321
▁mặt	-7.14313
▁sao	-7.14435
▁cảm	-7.14703
y	-7.15797
▁đấy	-7.16107
▁ngành	-7.16128
▁vừa	-7.16591
▁sức	-7.16842
▁vệ	-7.1708
▁trị	-7.17323
▁đạt	-7.18061
▁cô	-7.19484
▁s	-7.19727
▁phối	-7.20051
▁nghị	-7.21182
▁quyền	-7.22075
▁phụ	-7.22423
▁đưa	-7.2246
▁cuộc	-7.22848
▁sáu	-7.22976
▁phục	-7.23015
▁nếu	-7.23105
▁lớn	-7.24016
▁bình	-7.24017
▁trọng	-7.2404
▁kế	-7.24192
▁lịch	-7.24539
▁cán	-7.24918
▁bằng	-7.24934
▁cần	-7.252
▁kiến	-7.25729
▁thôi	-7.26529
▁khoảng	-7.26669
▁ứng	-7.26932
▁trang	-7.27142
▁mong	-7.27336
▁bán	-7.27916
▁ho	-7.27963
▁hệ	-7.28426
▁dẫn	-7.2897
▁tiền	-7.2925
o	-7.30605
▁bảy	-7.30773
▁khác	-7.31182
▁đủ	-7.31193
▁du	-7.31663
▁tiến	-7.32012
▁hay	-7.32043
▁nội	-7.3232
▁mọ	-7.33462
▁ngàn	-7.33581
▁thanh	-7.33609
▁cảnh	-7.33683
▁do	-7.33777
▁nghìn	-7.34038
▁phân	-7.34327
▁đúng	-7.34762
▁xe	-7.34946
▁n	-7.35022
▁góp	-7.35639
▁môi	-7.36082
▁quản	-7.36681
▁mua	-7.36968
▁vui	-7.37117
▁thân	-7.37569
▁đại	-7.38618
▁lúc	-7.38769
▁chuẩn	-7.39377
▁lớp	-7.39529
▁đội	-7.39649
▁nhập	-7.39681
▁thiết	-7.39987
▁lần	-7.3999
▁xử	-7.40296
▁đều	-7.40436
▁chín	-7.40635
▁phong	-7.40757
▁mạnh	-7.41222
▁lao	-7.41229
▁hồ	-7.4185
▁vùng	-7.42156
▁vốn	-7.4247
▁phí	-7.42627
▁vẫn	-7.42785
ỗi	-7.4326
▁chế	-7.43335
▁thuận	-7.43417
▁vực	-7.43417
▁trực	-7.4342
▁tám	-7.43739
▁thương	-7.44536
▁quốc	-7.45177
▁mấy	-7.45339
▁vật	-7.46656
▁cá	-7.47621
▁tuyến	-7.47635
▁bắt	-7.4796
▁chữa	-7.47972
u	-7.4834
▁sát	-7.48626
▁huy	-7.49772
▁tài	-7.50481
▁ty	-7.51337
▁trẻ	-7.51338
▁tiên	-7.51852
▁kỹ	-7.51852
▁thủ	-7.51951
▁tiện	-7.52025
▁dục	-7.52235
▁luật	-7.52547
▁nghèo	-7.53768
▁gắng	-7.54308
▁tượng	-7.54652
▁mục	-7.55192
▁tính	-7.55912
▁đỡ	-7.55921
▁rộng	-7.56082
▁báo	-7.5629
▁xuyên	-7.57168
▁giống	-7.57168
▁hưởng	-7.57715
▁ông	-7.58396
▁hôm	-7.58456
▁dụ	-7.5884
▁xuống	-7.59004
▁giảm	-7.60334
▁đẹp	-7.60498
▁y	-7.60672
▁chỗ	-7.60692
▁hiểu	-7.61064
▁yêu	-7.61838
▁sáng	-7.62782
▁mở	-7.63173
▁nhau	-7.63757
▁phấn	-7.63943
▁nam	-7.64543
▁máy	-7.6473
▁gần	-7.6512
▁cụ	-7.65156
▁ảnh	-7.65334
▁cứ	-7.65935
▁b	-7.67521
▁ví	-7.68119
▁chứ	-7.69528
▁phường	-7.69758
▁coi	-7.69998
▁rằng	-7.70378
▁chuyên	-7.70378
▁phạm	-7.70378
▁sạch	-7.71005
▁lập	-7.71422
▁trí	-7.72053
▁nghệ	-7.72477
▁nghiệm	-7.72477
▁vi	-7.72672
▁ổn	-7.72684
▁xong	-7.72902
▁quân	-7.73543
▁tiết	-7.73972
▁mang	-7.7494
▁nhanh	-7.7506
▁tinh	-7.75321
▁loại	-7.75491
▁lăm	-7.75491
▁mẹ	-7.75716
▁tuổi	-7.76149
▁chăm	-7.76377
▁ninh	-7.76814
▁minh	-7.77258
▁vô	-7.77261
▁thuật	-7.77339
▁riêng	-7.77478
▁môn	-7.77528
▁di	-7.78493
▁cực	-7.78599
▁ngân	-7.78599
▁kịp	-7.78824
▁triệu	-7.78824
▁tìm	-7.78824
▁yếu	-7.79051
▁nguyên	-7.80882
▁lấy	-7.8111
▁khỏe	-7.81574
▁chống	-7.81576
▁khởi	-7.81806
▁đấu	-7.81806
▁xác	-7.82724
▁dạy	-7.82761
▁liệu	-7.82977
▁lãnh	-7.82977
▁nghề	-7.82978
▁đánh	-7.83006
▁kỳ	-7.83213
▁hỏi	-7.8345
▁ký	-7.8345
▁thần	-7.83452
▁chú	-7.83487
▁chơi	-7.83924
▁lắm	-7.83924
▁diện	-7.84162
▁nơi	-7.84401
▁dùng	-7.84771
▁nghĩa	-7.8567
▁đóng	-7.85742
▁càng	-7.85778
▁tr	-7.85805
▁dung	-7.859
▁cứu	-7.86887
▁nữ	-7.86986
▁á	-7.87583
c	-7.87788
▁ấy	-7.87803
▁tết	-7.87919
▁cường	-7.88303
▁hạn	-7.88386
▁nhiên	-7.89299
▁nhỏ	-7.89299
▁trách	-7.89549
▁bở	-7.89553
▁chiến	-7.89809
▁l	-7.89852
▁c	-7.90285
▁trào	-7.90326
▁đời	-7.9107
▁biến	-7.9107
▁cư	-7.91098
▁trở	-7.91842
▁giữ	-7.92016
▁đâu	-7.92097
▁lễ	-7.92875
▁gọi	-7.93134
▁việt	-7.93398
▁mùa	-7.93412
▁khoa	-7.93897
▁xả	-7.94231
▁đào	-7.94725
▁sơ	-7.96406
▁soát	-7.96583
▁bác	-7.96712
▁đoạn	-7.96853
▁đồ	-7.97144
▁cộng	-7.9716
▁niên	-7.97397
▁bao	-7.97828
▁lo	-7.9791
▁hồi	-7.97927
▁đẩy	-7.97942
▁mạng	-7.97958
▁v	-7.98544
▁ngay	-7.99879
▁cận	-8.00716
▁thiện	-8.00998
▁phù	-8.01
▁thích	-8.01002
▁đông	-8.01268
▁tộc	-8.0128
▁lúa	-8.01563
▁dễ	-8.01564
▁vay	-8.01569
▁bố	-8.02298
▁thuốc	-8.02705
▁lưu	-8.03019
▁đầy	-8.0328
▁giới	-8.03282
▁thật	-8.03591
▁nghĩ	-8.0436
▁nắm	-8.04441
▁bước	-8.05029
▁sóc	-8.05616
▁đa	-8.06454
▁trò	-8.06506
▁kia	-8.07117
▁quảng	-8.0795
▁buổi	-8.08311
▁câu	-8.08311
▁ít	-8.08311
▁áp	-8.08347
▁chọn	-8.08615
▁sâu	-8.09532
▁rõ	-8.10149
▁biên	-8.10149
▁huấn	-8.10458
▁tay	-8.11465
▁mẫu	-8.12021
▁nhu	-8.12053
▁chăn	-8.12336
▁sĩ	-8.1234
▁so	-8.12786
▁hiểm	-8.1297
▁đăng	-8.1297
p	-8.1314
nh	-8.1386
▁ch	-8.13993
▁hoa	-8.14126
▁thầy	-8.1425
▁bài	-8.14476
▁khuyế	-8.14693
▁chấp	-8.149
▁mất	-8.14974
▁tuần	-8.16532
▁tầng	-8.1686
▁khá	-8.17399
▁ích	-8.17524
▁tưởng	-8.17857
▁bỏ	-8.17862
▁tổng	-8.18392
▁hòa	-8.1921
▁tương	-8.19246
▁xem	-8.19491
▁cạnh	-8.19882
▁thiếu	-8.19884
▁tức	-8.19958
▁rừng	-8.20227
▁đặt	-8.20564
▁khẩu	-8.20908
▁luyện	-8.20908
▁cáo	-8.21047
▁vững	-8.21253
▁thay	-8.21253
ắp	-8.21608
▁duy	-8.21784
▁mưu	-8.22012
▁biểu	-8.22295
▁hạ	-8.22802
▁th	-8.2291
▁giấy	-8.22995
▁trương	-8.23003
▁lòng	-8.24055
▁xin	-8.24063
▁cửa	-8.24457
▁gặp	-8.25127
▁sang	-8.25183
▁đô	-8.25445
▁mưa	-8.25486
▁vườn	-8.25847
▁dưới	-8.25848
ật	-8.26268
▁mức	-8.26605
▁đáp	-8.26957
▁rác	-8.27305
▁d	-8.27765
▁nạn	-8.28043
▁sớm	-8.28412
▁hà	-8.28428
iềm	-8.29532
▁tử	-8.29586
▁cung	-8.29907
▁giữa	-8.30026
▁tuy	-8.30299
▁mừng	-8.30306
g	-8.30562
▁lĩnh	-8.30663
▁phổ	-8.31043
▁diễn	-8.32579
▁viện	-8.32579
▁trưởng	-8.32966
▁xa	-8.32992
h	-8.33029
▁nối	-8.33356
▁biển	-8.33356
▁bé	-8.33746
▁suất	-8.3375
▁nhờ	-8.33752
gây	-8.33777
▁trì	-8.34116
▁lạc	-8.34232
▁xanh	-8.34562
▁tụ	-8.34935
▁dài	-8.35723
▁tranh	-8.36255
▁lâu	-8.36524
▁nhằm	-8.36524
▁trạng	-8.36524
▁chợ	-8.3653
▁r	-8.36918
▁hữu	-8.38557
▁vọng	-8.38557
▁cải	-8.38799
▁sơn	-8.39678
▁xúc	-8.39796
▁yên	-8.39848
▁gắn	-8.40188
▁cuối	-8.40213
▁mắt	-8.40213
▁bá	-8.40583
▁nguy	-8.40627
▁trái	-8.41052
▁h	-8.41245
▁làng	-8.41672
ất	-8.42414
▁mã	-8.42461
▁trả	-8.42472
▁lệ	-8.43159
▁ơn	-8.4318
▁chia	-8.43498
▁danh	-8.44051
▁cà	-8.44144
▁khám	-8.44206
▁trải	-8.44378
▁kiểu	-8.44478
▁sắc	-8.44915
▁thoát	-8.45353
▁sông	-8.45366
▁à	-8.45932
▁hương	-8.46242
▁nhìn	-8.46248
▁thủy	-8.46437
▁ai	-8.46455
▁chứng	-8.4647
▁quà	-8.46683
▁bổ	-8.4681
▁trấn	-8.47127
▁nhiệt	-8.47128
▁thải	-8.47226
▁nghiêm	-8.47576
▁chạy	-8.47578
▁tỷ	-8.47623
▁tầm	-8.47653
▁lộ	-8.48131
▁ạ	-8.48442
▁họp	-8.4861
▁ủng	-8.49041
▁quê	-8.49196
▁sửa	-8.49765
▁rà	-8.5053
▁hải	-8.50772
▁vai	-8.5081
▁tiếng	-8.51319
▁xét	-8.51705
▁khắc	-8.51706
▁nguyện	-8.53596
▁mốt	-8.53622
▁thái	-8.54074
▁tránh	-8.5408
▁biện	-8.54555
▁trận	-8.54555
▁kể	-8.54557
▁khí	-8.5551
▁chục	-8.55529
▁khả	-8.55949
▁đêm	-8.56534
ưu	-8.57229
e	-8.5728
▁mét	-8.57489
▁chỉnh	-8.57804
▁tận	-8.57987
▁chắc	-8.57991
▁đem	-8.58504
▁nền	-8.58512
▁quanh	-8.58601
▁tối	-8.58719
▁căn	-8.58989
▁nghe	-8.58989
▁nhóm	-8.58989
▁kê	-8.59576
▁thác	-8.59977
▁ca	-8.59982
▁trạm	-8.60002
▁hiến	-8.60003
▁vượt	-8.61025
▁xưa	-8.61025
▁gửi	-8.61541
▁nghỉ	-8.61541
▁phú	-8.61937
▁huynh	-8.62669
▁cam	-8.6272
▁chuyện	-8.63629
▁nh	-8.63953
▁lan	-8.64929
▁quỹ	-8.65225
▁uỷ	-8.65227
▁dịp	-8.65228
▁sẻ	-8.65241
▁quý	-8.65675
▁mắc	-8.66303
▁cha	-8.66648
▁quán	-8.66703
▁tái	-8.66878
▁thao	-8.67393
▁uống	-8.67945
▁xung	-8.68091
▁bọn	-8.68425
▁giang	-8.68851
▁phê	-8.69056
▁tai	-8.6944
▁hút	-8.69616
▁dương	-8.69617
▁khoản	-8.69655
▁long	-8.69694
▁kh	-8.69696
▁ph	-8.69701
▁thụ	-8.7063
▁bắc	-8.71304
▁dưỡng	-8.71307
▁đá	-8.71353
▁bò	-8.71876
▁tiểu	-8.71876
▁gương	-8.7188
▁phúc	-8.71918
▁x	-8.72096
▁dù	-8.72143
▁ngũ	-8.72452
▁xóm	-8.73029
▁đợt	-8.73029
▁nhật	-8.73057
▁đích	-8.7361
▁sàng	-8.7362
▁giảng	-8.73805
▁thoại	-8.74195
▁già	-8.74604
▁phủ	-8.74784
▁nghiên	-8.74786
▁thư	-8.75303
▁chiều	-8.75375
▁tải	-8.75452
▁lai	-8.75519
▁giỏi	-8.76569
▁khối	-8.76569
▁rút	-8.76576
▁ô	-8.77488
▁hơi	-8.78387
▁hào	-8.78497
▁phép	-8.79005
▁dần	-8.79007
▁gi	-8.79246
▁hè	-8.79622
▁lá	-8.79818
▁chặt	-8.80242
▁tỏa	-8.80873
▁máu	-8.80874
▁cử	-8.8137
▁sân	-8.81493
▁ấp	-8.81601
▁a	-8.82087
▁trời	-8.82126
▁nè	-8.8214
▁hậu	-8.82763
▁lựa	-8.82763
▁thấp	-8.82769
▁đức	-8.82879
▁gà	-8.83565
▁thăm	-8.83566
▁hại	-8.83964
▁đỏ	-8.84091
▁đón	-8.84327
▁tiêm	-8.84757
▁thuế	-8.84786
▁lời	-8.85352
▁tín	-8.85406
▁tố	-8.85692
▁toán	-8.8601
▁ma	-8.8658
hằng	-8.86672
▁châu	-8.86672
▁huyết	-8.86674
▁nỗ	-8.86731
▁phóng	-8.86826
▁món	-8.87313
▁héc	-8.87339
▁thuộc	-8.87341
▁chân	-8.87341
▁bền	-8.8801
▁đáng	-8.8839
▁lâm	-8.88711
▁tồn	-8.89366
▁binh	-8.89371
ch	-8.90575
▁mỹ	-8.90744
▁g	-8.914
háo	-8.91432
▁ocop	-8.91435
▁tội	-8.91435
▁đứng	-8.91435
▁trại	-8.91435
▁kiệm	-8.91436
s	-8.91647
▁đàn	-8.91759
▁đọc	-8.92134
▁nhiễm	-8.92838
▁nổi	-8.93127
êu	-8.93357
▁ngô	-8.93372
▁liệt	-8.94262
▁thiên	-8.94316
▁thầu	-8.94498
▁phá	-8.95534
▁tân	-8.95706
▁kéo	-8.96436
▁tờ	-8.96495
r	-8.9684
▁rau	-8.96994
▁lối	-8.97171
▁nặng	-8.97171
▁hiệp	-8.97912
▁vẻ	-8.97922
▁sợ	-8.9794
▁k	-8.98182
▁nổ	-8.98353
▁ngoại	-8.98658
▁nằm	-8.98658
▁xuân	-8.98665
▁mặc	-8.98676
▁phả	-8.99113
▁thiểu	-8.9941
▁quần	-9.00169
▁bánh	-9.00367
▁giác	-9.00597
▁dữ	-9.00934
▁vũ	-9.00936
▁mái	-9.01002
▁khánh	-9.01002
▁kiếm	-9.017
▁thiệu	-9.017
▁lương	-9.01719
▁xá	-9.01772
▁dòng	-9.02475
▁vinh	-9.02582
▁canh	-9.03309
▁vòng	-9.04044
l	-9.04323
hầu	-9.04405
hẩm	-9.04832
▁màu	-9.05025
▁độc	-9.05115
▁cổ	-9.05321
▁bữa	-9.05638
▁covid	-9.05638
▁tặng	-9.05638
d	-9.0596
▁trú	-9.06098
▁khỏi	-9.06444
▁đảo	-9.06444
▁triệt	-9.06445
▁nhắc	-9.06454
▁hạnh	-9.0659
▁đua	-9.07258
▁mại	-9.07305
▁chút	-9.07569
▁đổ	-9.07772
▁ghi	-9.08077
▁ương	-9.08295
▁áo	-9.083
▁ngập	-9.08903
▁ruộng	-9.08903
▁chồng	-9.08926
▁sung	-9.09004
▁tàu	-9.09737
▁linh	-9.09737
▁buôn	-9.09742
▁thí	-9.10563
▁thúc	-9.10612
▁tật	-9.11142
▁tu	-9.11375
▁gốc	-9.11424
▁nộp	-9.11424
▁chịu	-9.11846
▁trà	-9.12007
▁gom	-9.12279
▁đèn	-9.12279
▁nhớ	-9.12289
▁hy	-9.12438
▁bào	-9.12687
▁bấ	-9.12688
▁rưỡi	-9.13141
▁xếp	-9.13141
▁đài	-9.1334
▁bão	-9.14011
▁đốc	-9.14011
▁chẽ	-9.14024
▁khảo	-9.1413
▁dõi	-9.14888
▁lẻ	-9.14901
▁đau	-9.1505
▁gìn	-9.15495
▁cắt	-9.15773
▁nhiêu	-9.15786
▁thử	-9.15787
▁bí	-9.16666
▁cập	-9.16666
▁miền	-9.16679
ựu	-9.17439
▁nguyễn	-9.17567
▁tấn	-9.17567
▁kha	-9.17592
▁dọn	-9.18476
▁kỷ	-9.18481
▁thú	-9.18547
▁tui	-9.18808
▁vân	-9.19368
▁phận	-9.19393
▁mời	-9.19393
▁lắp	-9.19492
ây	-9.19587
▁tây	-9.19635
▁dạng	-9.19697
▁ng	-9.1975
▁vươn	-9.20294
▁khâu	-9.20319
▁phun	-9.20319
▁tuyển	-9.20336
▁tạm	-9.20348
▁kênh	-9.20369
▁lái	-9.20779
▁ngồi	-9.21254
▁vướng	-9.21254
▁trưng	-9.21254
▁gạo	-9.21265
▁bè	-9.21269
▁ước	-9.21321
▁thuê	-9.21322
▁bù	-9.21334
▁mai	-9.21688
ành	-9.21772
▁kho	-9.22139
▁đứa	-9.22197
▁túy	-9.22216
ỗ	-9.2268
▁chiếm	-9.23149
▁vợ	-9.23166
▁đai	-9.2317
▁ngon	-9.23185
▁khóa	-9.23365
▁lô	-9.23799
hăm	-9.23831
▁thắng	-9.24111
▁kích	-9.24115
▁thiệt	-9.24128
▁suy	-9.2414
▁cục	-9.24311
á	-9.24613
▁nhi	-9.24645
▁rè	-9.25089
▁dạ	-9.25274
▁khổ	-9.26062
▁thoả	-9.26062
▁bồi	-9.26119
âm	-9.26913
▁giả	-9.2712
▁bón	-9.27158
▁chết	-9.27599
▁ràng	-9.27732
▁mềm	-9.28052
▁chở	-9.28062
ế	-9.28507
▁khô	-9.28761
▁nắng	-9.29062
▁gỡ	-9.2907
▁phẩ	-9.29958
▁song	-9.30078
▁lắng	-9.30083
▁suốt	-9.30085
▁nhở	-9.30089
▁cỏ	-9.30096
▁gói	-9.32155
▁đậu	-9.32155
▁ấm	-9.32155
▁duyệt	-9.32161
▁khích	-9.32185
▁chuỗi	-9.32205
▁tôm	-9.3225
▁may	-9.33333
▁ly	-9.33536
ức	-9.33537
▁quay	-9.34
ồng	-9.34803
▁to	-9.3493
▁liền	-9.35353
▁u	-9.35404
▁tù	-9.35468
▁củ	-9.35893
▁móc	-9.36434
▁rượu	-9.36434
▁phước	-9.36437
▁kiên	-9.3644
▁lở	-9.36447
▁sạt	-9.36479
▁chữ	-9.37457
▁chè	-9.37475
▁chặn	-9.37533
▁niệm	-9.37534
▁trùng	-9.37571
▁cơm	-9.37629
▁gồ	-9.37632
▁phút	-9.37727
▁bóng	-9.37797
▁nấu	-9.38644
▁tạp	-9.38652
▁non	-9.38674
▁cũ	-9.39462
▁tịch	-9.39768
▁dàng	-9.39783
▁bờ	-9.39786
▁mê	-9.39825
▁tên	-9.39902
▁cống	-9.40551
▁hát	-9.40904
▁quận	-9.40904
▁ngủ	-9.40905
▁vả	-9.41709
▁bãi	-9.42054
▁chào	-9.42064
▁chờ	-9.42065
▁tốc	-9.4212
▁ổ	-9.4293
▁xu	-9.42973
▁lũ	-9.43145
▁cấu	-9.43216
▁bến	-9.43236
▁dây	-9.43249
▁thảo	-9.43273
ạo	-9.44104
▁đôi	-9.44213
ầu	-9.44357
▁bức	-9.44447
▁nghi	-9.44465
▁ánh	-9.44961
hậm	-9.45546
▁ngă	-9.45583
▁ngắn	-9.45583
▁lãi	-9.45583
▁sai	-9.45753
▁mật	-9.45894
▁lang	-9.45941
▁luận	-9.46788
▁nét	-9.46788
▁quen	-9.46791
▁vĩnh	-9.46792
▁chóng	-9.4694
▁tảng	-9.47067
▁cân	-9.48008
▁gọn	-9.48008
▁tuyệt	-9.48014
▁lồng	-9.4805
▁hồng	-9.48054
▁tôn	-9.48154
▁hứng	-9.49242
▁bầu	-9.49293
▁tri	-9.4957
▁la	-9.50666
▁hoàng	-9.50934
▁chu	-9.51581
▁heo	-9.51777
▁cầm	-9.51792
▁mơ	-9.5185
v	-9.52543
▁bạc	-9.53029
▁thưởng	-9.5304
▁tươi	-9.5304
▁tưới	-9.53132
▁thịt	-9.53192
ơ	-9.54088
▁bơi	-9.54339
▁phi	-9.54875
▁âm	-9.54981
thì	-9.55166
▁uy	-9.55368
▁sư	-9.55702
▁đà	-9.55722
▁nho	-9.55823
▁mù	-9.55893
▁cụm	-9.56499
ô	-9.56854
▁chiếc	-9.56988
▁chắn	-9.56988
▁dấu	-9.56988
▁núi	-9.56988
▁tắc	-9.56988
▁đòi	-9.56988
▁siêu	-9.56988
▁túc	-9.57001
▁mầm	-9.57077
ển	-9.57556
▁phó	-9.58024
▁sốt	-9.58301
▁nha	-9.59618
▁nọ	-9.59709
▁sổ	-9.59709
▁mối	-9.59709
▁thả	-9.59791
▁cổng	-9.60255
▁tô	-9.60406
k	-9.60599
b	-9.6061
ứt	-9.60975
▁lợn	-9.61098
▁trừ	-9.61104
▁gấp	-9.61105
▁hã	-9.61111
▁chùa	-9.61112
ầm	-9.61937
▁bớt	-9.62506
▁buộc	-9.62514
▁mũi	-9.62613
▁đền	-9.62853
▁đan	-9.63404
▁lành	-9.63522
▁ngừa	-9.63935
▁viết	-9.63935
▁truy	-9.63935
▁nợ	-9.63982
▁mương	-9.64008
▁cát	-9.64693
ư	-9.64833
▁tấm	-9.65384
▁bơm	-9.65384
▁chuồng	-9.65394
▁mùi	-9.65722
ẩn	-9.66228
▁bó	-9.66346
▁bày	-9.6645
▁qu	-9.66617
▁bưởi	-9.66855
▁bậc	-9.66855
▁dời	-9.66855
▁huống	-9.66855
▁xóa	-9.66855
▁kính	-9.66879
eo	-9.66927
▁ga	-9.67556
▁quang	-9.67784
▁hư	-9.67988
▁thù	-9.68048
▁thơ	-9.68252
▁dư	-9.68281
▁hạng	-9.68347
▁gió	-9.68347
▁thẻ	-9.68363
▁dừng	-9.68372
▁chậm	-9.68394
▁chảy	-9.68414
▁giàu	-9.68488
ạ	-9.68613
▁đo	-9.68917
▁sàn	-9.69345
▁hảo	-9.69862
▁phạt	-9.69867
▁nhẹ	-9.69871
▁chiếu	-9.69881
▁hưng	-9.70185
▁kém	-9.71401
▁miễn	-9.71401
▁nhựa	-9.71401
▁thập	-9.71401
▁trâu	-9.71401
▁hùng	-9.71401
▁trơn	-9.71401
hỏa	-9.71406
▁trữ	-9.71412
▁cỡ	-9.71433
à	-9.71706
▁p	-9.72073
▁lấn	-9.72963
▁lọc	-9.72963
▁ha	-9.7319
ừng	-9.7395
▁cốt	-9.74172
ớ	-9.74186
▁chấm	-9.74551
▁rửa	-9.74551
▁lưới	-9.74553
▁vẽ	-9.7458
▁bia	-9.74589
▁cột	-9.74609
▁loa	-9.75032
▁tí	-9.75928
▁trụ	-9.76155
▁chừng	-9.76346
▁bê	-9.76379
ử	-9.77404
▁vé	-9.77714
▁ngọc	-9.77803
▁nhuận	-9.77803
▁thừa	-9.77803
▁cấm	-9.7947
▁sắm	-9.7947
▁hố	-9.79843
ốt	-9.79908
ệ	-9.80582
▁đồn	-9.8065
▁trọ	-9.80763
uân	-9.8111
▁thọ	-9.81165
▁tiễn	-9.81165
▁gỗ	-9.81189
▁mãi	-9.82397
▁nóng	-9.8265
▁nếp	-9.82889
▁da	-9.83184
▁dàn	-9.83195
▁miế	-9.83806
▁ngã	-9.84341
acebook	-9.84643
▁ngõ	-9.84643
▁tòa	-9.84643
▁trần	-9.8467
▁thuyền	-9.84676
▁lộc	-9.84793
▁hạt	-9.85091
▁no	-9.85477
ả	-9.85521
am	-9.85736
▁bổng	-9.85907
▁thổ	-9.86429
▁đập	-9.86429
▁hái	-9.86429
▁cờ	-9.86452
▁dầu	-9.86468
▁hôi	-9.86593
▁khiển	-9.868
▁co	-9.8717
▁đôn	-9.87378
ỡ	-9.87573
▁lê	-9.88091
▁ấn	-9.88247
▁tướng	-9.88248
▁đợi	-9.88248
▁bông	-9.8828
▁nhãn	-9.88295
▁thất	-9.88373
ương	-9.88908
▁bay	-9.89839
▁ngoái	-9.90099
▁dược	-9.90103
▁mát	-9.90148
▁khen	-9.90161
▁khuẩn	-9.90234
▁dồi	-9.9024
▁ki	-9.90356
▁thưa	-9.90358
ê	-9.90454
▁lạ	-9.90851
▁vàng	-9.91416
ẽ	-9.91737
▁chụp	-9.91986
▁lứa	-9.91986
▁nhấn	-9.91986
▁rãi	-9.91986
▁trăng	-9.91993
▁hoài	-9.9218
▁ờ	-9.923
▁tốn	-9.92411
▁vài	-9.92512
▁kè	-9.93792
▁lân	-9.93909
▁sôi	-9.93909
▁ghép	-9.93919
alo	-9.93921
▁rủ	-9.93966
▁ngang	-9.94011
▁giản	-9.94263
▁lu	-9.94286
▁mi	-9.9544
▁góc	-9.9587
▁huế	-9.9587
▁mượn	-9.9587
▁vietgap	-9.9587
▁tim	-9.95889
▁bạch	-9.95907
▁mì	-9.95928
▁cúng	-9.96008
▁đồi	-9.96124
ường	-9.96463
▁tông	-9.96544
ợ	-9.97138
▁lụt	-9.97869
▁trắng	-9.97869
▁ngờ	-9.97877
▁chốt	-9.97904
▁mần	-9.97943
▁đẻ	-9.98022
▁rào	-9.98164
▁giáp	-9.98758
ỉa	-9.988
ên	-9.99117
hứa	-9.99873
▁app	-9.9991
▁dẹp	-9.9991
▁cuốn	-9.99913
▁đáo	-10.0015
út	-10.0019
ụ	-10.0153
▁camera	-10.0199
▁sóng	-10.0199
▁đạp	-10.0199
▁ngữ	-10.02
▁bì	-10.0201
▁châm	-10.0206
▁xài	-10.0215
▁ống	-10.0221
▁bật	-10.0228
▁chứa	-10.0288
ảy	-10.0307
▁chai	-10.0319
ố	-10.0327
ì	-10.0379
ới	-10.0399
▁dám	-10.0412
▁buồn	-10.0415
▁sa	-10.0427
▁cảng	-10.0589
ù	-10.0596
▁lừa	-10.063
▁miệng	-10.063
▁online	-10.063
▁trứng	-10.063
▁nửa	-10.063
▁võ	-10.063
▁rối	-10.063
▁khắp	-10.064
▁chúc	-10.0665
rông	-10.0729
▁tán	-10.0747
▁khung	-10.0755
▁ủ	-10.0823
▁sữa	-10.0852
▁xưởng	-10.0852
▁hỏng	-10.0852
▁múa	-10.0852
▁thang	-10.0853
▁san	-10.0946
▁hộp	-10.095
ép	-10.1022
▁ni	-10.1029
▁thờ	-10.1051
ỷ	-10.1052
▁kháng	-10.1068
▁hoang	-10.1076
▁băng	-10.1079
▁mắn	-10.1079
▁sắt	-10.1079
▁thoáng	-10.1079
▁tòi	-10.1079
▁xấu	-10.1079
▁thuyết	-10.108
▁nhạc	-10.108
▁hiếu	-10.1081
▁đán	-10.1153
on	-10.1212
▁cồn	-10.1239
▁tả	-10.1274
▁cấy	-10.1312
▁hắn	-10.1312
▁nấm	-10.1312
▁vắc	-10.1312
▁ơi	-10.1312
▁răng	-10.1312
▁nhánh	-10.1314
▁kèm	-10.1327
ùn	-10.1388
▁cộ	-10.1509
ã	-10.1511
▁dậy	-10.155
▁lẫn	-10.155
▁lửa	-10.155
▁muối	-10.155
▁sào	-10.155
▁trưa	-10.155
▁ốm	-10.155
▁hấp	-10.1552
▁mạch	-10.1552
▁dì	-10.1553
▁đốt	-10.1577
▁xứng	-10.1578
▁đen	-10.1581
▁can	-10.1624
▁xâ	-10.1625
▁ôn	-10.1625
▁cẩm	-10.1794
▁quét	-10.1794
▁suối	-10.1794
▁vết	-10.1794
▁bụi	-10.1794
▁cước	-10.1795
▁dê	-10.1797
▁ven	-10.1805
▁thùng	-10.1846
▁tre	-10.1931
en	-10.1943
▁chó	-10.2012
▁bếp	-10.2044
▁dừa	-10.2044
▁vuông	-10.2044
▁ghe	-10.2044
▁vời	-10.2044
▁quế	-10.2045
▁keo	-10.2046
▁mệt	-10.2049
▁chả	-10.2061
ảng	-10.2211
ề	-10.2227
ẻ	-10.2246
ần	-10.2266
▁dọc	-10.23
▁hẹp	-10.23
▁xịt	-10.23
▁ẩm	-10.23
▁rơi	-10.23
ục	-10.23
▁ngư	-10.2302
▁dỡ	-10.2304
▁điền	-10.2308
▁su	-10.2372
iếu	-10.2477
▁cám	-10.2499
▁hôn	-10.2529
▁xứ	-10.2531
▁thượng	-10.2563
▁ráng	-10.2563
▁chiêng	-10.2563
▁chuyền	-10.2564
iêm	-10.2565
▁lấp	-10.2567
▁mảnh	-10.2568
▁cương	-10.2569
▁ghế	-10.2833
▁lăng	-10.2833
▁xăng	-10.2833
▁xương	-10.2836
et	-10.2941
▁trúng	-10.2942
▁cai	-10.3001
ú	-10.3033
▁mỏ	-10.3089
▁gò	-10.3092
▁giãn	-10.3111
▁phẫu	-10.3111
▁trộm	-10.3111
▁tắm	-10.3111
▁xoài	-10.3111
▁lãng	-10.3111
▁ngoan	-10.3111
▁trôi	-10.3111
▁chuyến	-10.3112
▁tuệ	-10.3113
▁khẩn	-10.3114
▁lạnh	-10.3116
▁vá	-10.3121
▁trọt	-10.3126
▁phim	-10.3138
▁bột	-10.3141
▁thịnh	-10.3218
ông	-10.3318
ồ	-10.3326
▁chuối	-10.3397
▁gũi	-10.3397
▁hẹn	-10.3397
▁khéo	-10.3397
▁mướn	-10.3397
▁ngại	-10.3397
▁xoa	-10.3397
▁rẻ	-10.34
▁lục	-10.3401
▁phan	-10.3409
▁dưa	-10.3413
▁rong	-10.3427
▁ái	-10.3469
ấp	-10.3502
ến	-10.355
ỏ	-10.3623
x	-10.3642
▁kí	-10.3667
ị	-10.3671
è	-10.3671
▁mặn	-10.3691
▁khuôn	-10.3691
▁trúc	-10.3705
▁kim	-10.3711
▁túi	-10.3715
▁bọ	-10.3729
▁bắp	-10.3733
▁tệ	-10.3734
▁dạn	-10.3748
▁hoà	-10.3771
▁lỗi	-10.3792
ờ	-10.393
ánh	-10.3968
▁lỗ	-10.3975
▁sạ	-10.3976
▁mắm	-10.3994
▁rẫy	-10.3994
▁thạnh	-10.3994
▁tắt	-10.3994
▁ong	-10.3997
▁xíu	-10.3999
▁say	-10.4005
▁phật	-10.4008
▁ro	-10.4014
ở	-10.4206
▁hò	-10.4298
▁đằng	-10.4307
▁lư	-10.4308
▁gieo	-10.431
▁vở	-10.431
▁dao	-10.4319
▁cất	-10.4337
▁cứng	-10.4499
▁le	-10.4533
ẹ	-10.4617
▁cọc	-10.4629
▁gái	-10.4629
▁ngược	-10.4629
▁hủy	-10.4632
▁in	-10.4639
▁hô	-10.4648
▁thơm	-10.4657
▁mỏi	-10.4665
▁má	-10.4715
ể	-10.474
▁xô	-10.4752
▁quên	-10.4771
▁rạ	-10.4861
▁vịt	-10.4905
▁chừ	-10.4932
▁chấn	-10.4962
▁măng	-10.4962
▁sấy	-10.4962
▁video	-10.4962
▁địch	-10.4962
▁khiếu	-10.4965
▁hầm	-10.4968
▁mẽ	-10.4979
▁cắp	-10.5
▁tường	-10.5003
▁đầm	-10.501
▁hàn	-10.5137
▁bắn	-10.5307
▁dập	-10.5307
▁giấc	-10.5307
▁nhịp	-10.5307
▁qr	-10.5307
▁súc	-10.5307
▁thận	-10.5307
▁vầy	-10.5307
▁đuối	-10.5307
▁khơi	-10.5307
▁nãy	-10.5307
▁thối	-10.5307
▁muỗi	-10.5307
▁úng	-10.5307
▁chuông	-10.5308
▁luồng	-10.5309
▁phiên	-10.531
▁ngừng	-10.531
▁tỉ	-10.5313
▁đạc	-10.5322
▁thuần	-10.5326
▁hoá	-10.5333
▁nai	-10.5334
▁vang	-10.5337
▁ao	-10.5346
▁lạng	-10.5367
▁e	-10.5481
▁hi	-10.5566
▁cù	-10.5639
▁khmer	-10.5664
▁khớp	-10.5664
▁lượt	-10.5664
▁nhắn	-10.5664
▁rằm	-10.5664
▁tháp	-10.5664
▁não	-10.5664
▁nở	-10.5672
▁tủ	-10.5673
▁quyên	-10.5684
▁kín	-10.5686
ệm	-10.5689
▁ẩn	-10.5787
▁đe	-10.5805
▁bi	-10.5866
▁đắp	-10.5873
▁va	-10.6023
▁xí	-10.6029
ắk	-10.6031
▁cắn	-10.6035
▁mộc	-10.6035
▁mực	-10.6035
▁rét	-10.6035
▁rắn	-10.6035
▁sót	-10.6035
▁tivi	-10.6035
▁tour	-10.6035
▁đoán	-10.6035
▁đoạt	-10.6035
▁tàng	-10.6036
lip	-10.6037
▁loạt	-10.6037
▁diệt	-10.6038
▁dã	-10.6039
▁mạc	-10.6043
▁sen	-10.6046
▁đê	-10.6062
▁lam	-10.6082
▁bốc	-10.6086
▁pha	-10.609
▁khoai	-10.61
▁bảng	-10.6171
▁che	-10.62
▁tú	-10.6248
▁st	-10.6303
▁bể	-10.6365
▁nề	-10.641
▁gặt	-10.6419
▁ngọt	-10.6419
▁rơm	-10.6419
▁đúc	-10.6419
▁thở	-10.6423
▁loạn	-10.6424
▁dứt	-10.6427
▁đỉnh	-10.6431
▁men	-10.6434
▁lệnh	-10.6446
▁mau	-10.6452
▁tạ	-10.6552
rạch	-10.6616
▁mồ	-10.668
▁dồ	-10.6792
▁mũ	-10.6797
viettel	-10.6819
▁lậu	-10.6819
▁thấm	-10.6819
▁đuổi	-10.6819
▁game	-10.6819
▁hụi	-10.6819
▁phơi	-10.6819
▁điệu	-10.6819
▁sài	-10.6819
▁kẹ	-10.6821
▁rệt	-10.6821
▁then	-10.6824
▁táo	-10.6825
▁trục	-10.6835
▁mường	-10.6839
▁sạn	-10.6846
▁tràn	-10.6866
or	-10.6874
▁ngãi	-10.6891
▁hàm	-10.696
▁bo	-10.705
▁na	-10.7059
▁lội	-10.7103
▁xà	-10.721
rải	-10.7215
ờn	-10.7217
▁than	-10.7231
er	-10.7232
▁rứa	-10.7236
▁dày	-10.7236
▁loài	-10.7236
▁tráng	-10.7236
▁ớt	-10.7236
▁ngưỡng	-10.7237
▁gánh	-10.7238
▁phao	-10.7244
▁vương	-10.7256
▁cháo	-10.7259
▁chanh	-10.7261
hạm	-10.7263
▁hưu	-10.7272
▁cửu	-10.7274
▁đàng	-10.7355
ẫ	-10.7671
▁cặp	-10.7671
▁hẻm	-10.7671
▁khúc	-10.7671
▁khấu	-10.7671
▁nghiện	-10.7671
▁tĩnh	-10.7671
▁mốc	-10.7671
▁nạp	-10.7671
▁sướng	-10.7671
▁hở	-10.7674
▁vạn	-10.7676
iếp	-10.7681
▁nương	-10.7687
▁treo	-10.7695
▁cành	-10.772
▁tỉa	-10.7735
▁quýt	-10.7744
▁ổi	-10.7791
▁cú	-10.7816
▁mác	-10.7872
▁hụt	-10.8125
▁internet	-10.8125
▁kịch	-10.8125
▁muoi	-10.8125
▁youtube	-10.8125
▁đắn	-10.8125
▁nhũng	-10.8125
▁điệp	-10.8125
▁ngỡ	-10.8128
▁vỏ	-10.8131
▁thợ	-10.8132
▁neo	-10.8147
▁gòn	-10.8158
▁quyển	-10.8162
ống	-10.8459
ầ	-10.8564
ũ	-10.858
ệt	-10.858
rắc	-10.8602
▁bận	-10.8602
▁cậu	-10.8602
▁dắt	-10.8602
▁dặn	-10.8602
▁lít	-10.8602
▁nhọn	-10.8602
▁vắng	-10.8602
▁kạn	-10.8602
▁ốc	-10.8602
▁cua	-10.8602
▁thai	-10.8602
▁ngắm	-10.8606
▁trống	-10.8607
eb	-10.8608
▁giật	-10.8622
hênh	-10.8632
▁pháo	-10.8652
yên	-10.8703
▁ép	-10.8708
ạc	-10.8715
▁ngôn	-10.8732
▁vải	-10.8734
và	-10.9055
ỉ	-10.9057
ủng	-10.9079
hắc	-10.909
▁riềng	-10.9102
▁ân	-10.9102
▁lãm	-10.9102
▁bại	-10.9102
▁súng	-10.9102
▁voi	-10.9102
▁kiệt	-10.9102
▁trễ	-10.9103
▁rước	-10.9103
▁lề	-10.9109
▁sạc	-10.9114
op	-10.9117
▁mến	-10.9119
▁mẻ	-10.9121
▁thách	-10.9126
▁mạ	-10.9131
▁lũy	-10.9137
▁chật	-10.9144
▁mây	-10.9155
le	-10.9287
ảnh	-10.9416
▁bồ	-10.9534
▁bùn	-10.9605
▁chốn	-10.9625
▁cắm	-10.9628
▁triều	-10.9628
▁đắc	-10.9628
▁liêu	-10.9628
▁vong	-10.9628
▁thép	-10.9634
▁lỡ	-10.9639
▁rồng	-10.964
▁lạt	-10.9657
▁thảm	-10.9678
▁tá	-10.9734
▁vú	-10.9918
húng	-11.013
ữ	-11.0165
▁ghé	-11.0181
▁container	-11.0183
▁ném	-11.0183
▁tiếc	-11.0183
▁dũng	-11.0183
▁rời	-11.0183
▁vẹn	-11.0183
▁giếng	-11.0184
▁ok	-11.0184
▁lược	-11.0185
▁kẻ	-11.0187
▁luân	-11.0196
▁tảo	-11.02
▁bom	-11.0201
▁vét	-11.0214
▁tỏ	-11.0223
▁tràm	-11.0269
▁soạ	-11.0339
▁bú	-11.0517
êm	-11.0711
cái	-11.0723
▁dán	-11.0769
▁chuột	-11.0772
▁dột	-11.0772
▁hiếm	-11.0772
▁lính	-11.0772
▁vaccine	-11.0772
▁đọng	-11.0772
▁thiệp	-11.0772
▁nhơn	-11.0772
▁nồi	-11.0772
▁đếm	-11.0772
▁mini	-11.0772
▁tem	-11.0772
▁rễ	-11.0773
▁dị	-11.0773
▁kệ	-11.0777
▁bạt	-11.0777
▁phà	-11.0778
▁nát	-11.078
▁duyên	-11.0788
▁nga	-11.0794
▁móng	-11.0795
▁manh	-11.0799
▁ngo	-11.0803
▁len	-11.0818
ạt	-11.0848
▁ve	-11.1222
iền	-11.1319
rồi	-11.1348
ỉnh	-11.1354
▁trăn	-11.1394
▁cạn	-11.1394
estival	-11.1397
▁gác	-11.1397
▁huỳnh	-11.1397
▁hổng	-11.1397
▁sập	-11.1397
▁thạch	-11.1397
▁đắt	-11.1397
▁giết	-11.1397
▁biogas	-11.1397
▁sim	-11.1399
▁hiền	-11.1399
▁kề	-11.14
▁phế	-11.1408
▁lù	-11.1408
▁viêm	-11.141
▁lách	-11.1411
▁lau	-11.1426
▁ná	-11.1433
▁chèo	-11.1437
▁mứt	-11.1441
ưỡng	-11.15
▁nan	-11.1974
▁bún	-11.2042
ĩ	-11.2046
▁răn	-11.2061
▁lươn	-11.2061
▁thốn	-11.2061
▁nôn	-11.2061
▁cuốc	-11.2063
▁mobile	-11.2063
▁muộn	-11.2063
▁mít	-11.2063
▁ngọn	-11.2063
▁oxy	-11.2063
▁trội	-11.2063
▁trộn	-11.2063
▁viễn	-11.2063
▁rớt	-11.2063
▁cười	-11.2063
▁đạn	-11.2064
▁khỉ	-11.2066
▁dáng	-11.2066
▁lưỡng	-11.2067
▁dở	-11.2069
▁chép	-11.2072
▁chớ	-11.2076
▁vâng	-11.2082
ước	-11.2706
ý	-11.2723
▁nhã	-11.2764
▁nhì	-11.2765
▁ướ	-11.2774
hặt	-11.2774
▁kì	-11.2774
▁trốn	-11.2775
▁dốc	-11.2778
▁homestay	-11.2778
▁liều	-11.2778
▁lõi	-11.2778
▁mía	-11.2778
▁ngón	-11.2778
▁ngạch	-11.2778
▁quầy	-11.2778
▁quẹt	-11.2778
▁rãnh	-11.2778
▁thòi	-11.2778
ừ	-11.4321
ủ	-11.615
ỳ	-11.6288
ễ	-12.0064
ỹ	-12.0068
õ	-13.456
é	-13.4561
ằ	-13.4562
ẩ	-13.4563
ặ	-13.4564
ò	-13.4565
ắ	-13.4566
ổ	-13.4567
ọ	-13.4568
í	-13.4569
ứ	-13.457
ậ	-13.4571
ự	-13.4572
q	-13.4573
ă	-13.4574
ộ	-13.4575
ấ	-13.4576
â	-13.4577
ó	-13.4578
đ	-13.4579
